<unk>	0
<s>	0
</s>	0
s	-2.54226
▁-	-2.71651
ed	-3.10879
▁	-3.33943
es	-3.40796
t	-3.67299
▁a	-3.68036
e	-3.78232
ing	-3.95518
▁the	-3.9629
▁an	-3.96508
i	-3.99579
o	-4.18855
a	-4.27921
p	-4.31207
l	-4.413
r	-4.47419
u	-4.4864
d	-4.50142
▁in	-4.5572
y	-4.61141
m	-4.65901
n	-4.68098
er	-4.71163
▁on	-4.81116
▁at	-4.88012
or	-4.89241
g	-4.94888
al	-4.95463
c	-5.0202
f	-5.15632
ic	-5.34653
▁re	-5.36009
ar	-5.36932
v	-5.38045
en	-5.3863
in	-5.38966
b	-5.44986
▁b	-5.47812
▁de	-5.52484
at	-5.57182
w	-5.59161
k	-5.60022
th	-5.61769
▁ac	-5.68554
▁h	-5.68943
▁fo	-5.73182
▁t	-5.75355
▁p	-5.76767
▁os	-5.77304
▁im	-5.80618
▁co	-5.8156
▁g	-5.82544
▁ax	-5.83333
▁ar	-5.83652
▁au	-5.86413
▁aw	-5.86488
▁av	-5.86589
▁ak	-5.86806
ch	-5.88184
▁ab	-5.89308
▁aj	-5.89597
▁l	-5.91003
▁ag	-5.93275
ation	-5.93387
▁ai	-5.95613
ate	-5.9683
▁ay	-5.98072
an	-5.98704
▁ap	-6.0025
▁ao	-6.00547
▁il	-6.02227
ion	-6.05864
▁en	-6.05949
▁mo	-6.06953
ist	-6.08203
▁pre	-6.10525
-	-6.20559
ce	-6.21587
▁ig	-6.21746
▁ir	-6.21876
▁es	-6.22646
ck	-6.24322
▁iy	-6.24765
▁dis	-6.25297
▁un	-6.2555
▁ib	-6.2608
▁ip	-6.28914
ul	-6.29665
▁st	-6.3026
able	-6.34674
re	-6.38453
▁f	-6.4051
▁pro	-6.41311
z	-6.41519
▁ys	-6.4327
▁tho	-6.44141
▁tha	-6.44896
ll	-6.45133
▁po	-6.45141
▁con	-6.46296
tion	-6.49229
▁comp	-6.50247
ations	-6.50834
▁ma	-6.55316
▁iv	-6.55665
ure	-6.58733
ive	-6.60034
and	-6.60324
▁spe	-6.60354
ot	-6.61618
on	-6.6163
▁lo	-6.63431
ous	-6.6551
ide	-6.66098
▁ic	-6.68967
ect	-6.69837
▁ix	-6.70716
▁gre	-6.72855
lat	-6.7438
▁cre	-6.76401
▁ro	-6.78329
di	-6.78972
age	-6.79066
▁que	-6.806
▁od	-6.82849
▁iz	-6.83325
ment	-6.83926
ish	-6.84124
▁swe	-6.85195
tur	-6.86779
our	-6.87302
▁thim	-6.87478
sert	-6.8859
▁ra	-6.89208
▁ex	-6.89656
▁me	-6.92099
▁fre	-6.92131
▁mi	-6.93604
nds	-6.94132
▁se	-6.95502
▁fa	-6.96608
▁sc	-6.97161
▁ud	-6.99012
▁ske	-6.99638
ash	-7.00667
▁fris	-7.01734
no	-7.02175
ite	-7.02273
▁che	-7.03039
▁sce	-7.03582
▁fle	-7.03897
▁sle	-7.03972
▁ple	-7.04002
▁lea	-7.04937
oon	-7.0542
ian	-7.05849
▁phe	-7.06103
▁ho	-7.06414
▁snis	-7.07231
▁plis	-7.07234
▁ne	-7.07385
▁pr	-7.08366
▁kne	-7.08366
▁cross	-7.09513
▁wre	-7.09544
▁gle	-7.09616
▁ble	-7.10408
▁dre	-7.1085
gra	-7.10861
▁we	-7.11448
▁bu	-7.1147
aliz	-7.11878
▁chu	-7.11979
▁tre	-7.12915
▁ca	-7.13041
▁sve	-7.13076
▁thu	-7.1321
own	-7.14095
▁fl	-7.14172
▁whis	-7.14247
ight	-7.14474
▁cze	-7.15468
atic	-7.15668
▁dra	-7.16167
▁thys	-7.17964
▁sme	-7.18023
.	-7.19217
▁gwe	-7.20535
▁twe	-7.20545
▁quis	-7.21798
▁per	-7.2243
man	-7.23257
▁inte	-7.2491
ful	-7.25768
▁beach	-7.25799
▁tra	-7.26583
lies	-7.26837
▁whe	-7.27168
centr	-7.2752
▁thi	-7.28196
▁emb	-7.28567
▁count	-7.28567
▁j	-7.28675
▁cl	-7.2893
fic	-7.31094
▁fol	-7.31433
road	-7.31703
▁appear	-7.31738
cultur	-7.32868
▁thir	-7.34038
▁collaboration	-7.35806
▁gener	-7.38883
▁ob	-7.40141
▁rest	-7.40416
chan	-7.40529
j	-7.42528
ator	-7.43506
▁consider	-7.43623
▁award	-7.43649
▁fu	-7.45754
press	-7.45981
round	-7.4693
sign	-7.47011
▁read	-7.47054
nanc	-7.47116
▁lantern	-7.48625
serv	-7.49309
▁activ	-7.50349
▁tail	-7.5035
found	-7.50354
tern	-7.50746
▁pict	-7.50869
mone	-7.51282
▁continent	-7.52102
▁overs	-7.52365
nts	-7.53785
▁reproduc	-7.53898
ipulat	-7.53958
lec	-7.55023
▁brains	-7.5573
ife	-7.56136
ular	-7.57218
▁inhal	-7.57558
▁bound	-7.57559
▁non	-7.57708
vers	-7.58892
▁sw	-7.59126
▁recogni	-7.59445
▁limit	-7.59445
▁rebuild	-7.59445
▁campaign	-7.61368
▁cen	-7.6179
▁office	-7.63239
hole	-7.63329
urdle	-7.6333
reign	-7.63348
tract	-7.63389
educ	-7.64459
rac	-7.65169
▁geologist	-7.65329
▁pris	-7.65596
port	-7.65813
▁dr	-7.66565
igh	-7.66985
▁citizen	-7.67369
▁week	-7.67384
ble	-7.679
lem	-7.68413
▁oc	-7.68711
▁aqu	-7.69453
▁symptom	-7.69453
ities	-7.69515
▁vo	-7.69956
▁short	-7.7158
▁summ	-7.71581
itt	-7.71839
vert	-7.72245
over	-7.73557
solv	-7.73769
▁agree	-7.73776
arch	-7.74079
fra	-7.746
arri	-7.74796
vel	-7.76261
▁philosoph	-7.78249
▁breath	-7.78249
▁slip	-7.78251
▁acqui	-7.80575
taph	-7.80575
▁tempt	-7.80575
▁wav	-7.80577
low	-7.80757
reli	-7.81912
▁hotspots	-7.82956
▁wor	-7.83194
rbon	-7.83533
success	-7.85369
▁break	-7.85395
▁capacit	-7.85395
▁local	-7.85411
ower	-7.85449
▁quantif	-7.87895
▁cit	-7.8792
gerat	-7.89007
▁divide	-7.90459
▁hostel	-7.90459
▁inclu	-7.90477
▁sub	-7.90492
rain	-7.91247
ntle	-7.91887
▁commercial	-7.93091
▁neologism	-7.93091
▁measur	-7.93091
stream	-7.93092
lder	-7.93431
diver	-7.9455
mater	-7.94778
▁safeguard	-7.95793
▁science	-7.95793
▁intersect	-7.95793
▁large	-7.95808
▁successor	-7.95822
▁bann	-7.95822
▁terri	-7.98573
▁elect	-7.98577
mail	-7.98579
bell	-7.98619
▁stru	-7.98641
▁raci	-7.98694
▁officers	-7.98699
▁fest	-7.9905
fun	-8.00774
▁calendar	-8.01428
▁departure	-8.01428
▁glyphs	-8.01428
▁textbook	-8.01428
▁unknowns	-8.01428
▁websites	-8.01428
▁chair	-8.01428
▁vibrat	-8.01428
▁direct	-8.01428
▁reform	-8.01429
▁want	-8.01431
▁displacements	-8.01432
▁cra	-8.01438
▁represent	-8.01491
▁sou	-8.03839
▁cupcake	-8.04369
▁embarrassment	-8.04369
▁opportun	-8.04369
▁preconditions	-8.04369
▁countries	-8.04371
▁supp	-8.04425
▁annoy	-8.04436
nject	-8.04485
▁basils	-8.074
▁centerpiece	-8.074
▁families	-8.074
▁narcotics	-8.074
▁channel	-8.074
▁waist	-8.07401
defin	-8.07402
▁pattern	-8.07402
▁interest	-8.07403
▁invest	-8.07414
▁anime	-8.07423
ligi	-8.09885
▁alcoholics	-8.10525
▁bridges	-8.10525
▁capsules	-8.10525
▁domain	-8.10525
▁misconception	-8.10525
▁writers	-8.10525
▁emerge	-8.10525
▁calculus	-8.10576
▁rid	-8.10817
utter	-8.10829
▁objecti	-8.11804
▁brightness	-8.1375
▁discourse	-8.1375
▁improvements	-8.1375
▁interventions	-8.1375
▁longitude	-8.1375
▁pathways	-8.1375
▁puppets	-8.1375
▁seasons	-8.1375
▁squ	-8.1375
▁plac	-8.13752
▁slice	-8.13752
▁communi	-8.13939
tize	-8.14087
jection	-8.1575
▁asbestos	-8.17084
▁billions	-8.17084
▁brevet	-8.17084
▁influx	-8.17084
▁saponins	-8.17084
▁shelter	-8.17084
▁masters	-8.17085
▁consum	-8.17088
▁handle	-8.17089
▁atoms	-8.17117
▁start	-8.17163
favor	-8.17245
▁ambassadors	-8.20532
▁explorers	-8.20532
▁expropriation	-8.20532
▁festivals	-8.20532
▁paratexts	-8.20532
▁parole	-8.20532
▁vindication	-8.20532
▁policing	-8.20533
nounce	-8.20533
▁claws	-8.20533
▁fathers	-8.20533
▁contours	-8.20533
view	-8.20535
▁agreements	-8.20546
▁things	-8.20602
strate	-8.2091
▁accomplishments	-8.24103
▁ambiguity	-8.24103
▁appellants	-8.24103
▁credential	-8.24103
▁explosion	-8.24103
▁imagination	-8.24103
▁institutions	-8.24103
▁participants	-8.24103
▁walk	-8.24105
▁cease	-8.24187
▁spare	-8.24261
ggin	-8.25394
munic	-8.27592
nclusi	-8.27806
▁connotations	-8.27807
▁intervals	-8.27807
▁society	-8.27807
▁wavenumber	-8.27807
▁sinuses	-8.27807
▁constru	-8.27807
▁command	-8.27807
▁adapt	-8.27808
▁guests	-8.27808
▁tourist	-8.27811
▁spite	-8.2782
ntain	-8.28017
▁uncontro	-8.28313
1	-8.31653
8	-8.31653
9	-8.31653
0	-8.31653
evaluate	-8.31653
▁architecture	-8.31653
▁attempt	-8.31653
▁botanicals	-8.31653
▁congratulate	-8.31653
▁kinematics	-8.31653
▁vaccine	-8.31653
▁venality	-8.31653
▁recipe	-8.31653
▁haven	-8.31654
▁heels	-8.31654
▁sections	-8.31654
▁fears	-8.3166
▁bicycling	-8.35653
▁character	-8.35653
▁denomination	-8.35653
▁easterners	-8.35653
▁influences	-8.35653
▁lakefront	-8.35653
▁pilgrims	-8.35653
▁stonework	-8.35653
▁woodland	-8.35653
▁album	-8.35653
▁malfunction	-8.35653
▁demise	-8.35654
▁demotion	-8.35654
▁style	-8.35655
▁perils	-8.35659
guard	-8.35684
insula	-8.36385
ampe	-8.37233
tale	-8.37846
▁airwaves	-8.3982
▁antiques	-8.3982
▁cycle	-8.3982
▁enjambment	-8.3982
▁habit	-8.3982
▁islamophobia	-8.3982
▁jurisdictions	-8.3982
▁minorities	-8.3982
▁responses	-8.3982
▁actresses	-8.3982
▁hurtle	-8.3982
control	-8.43576
pathize	-8.44168
scientology	-8.44168
▁certificates	-8.44168
▁colleges	-8.44168
▁frontline	-8.44168
▁provocation	-8.44168
▁qualities	-8.44168
(	-9.41463
)	-9.41463
q	-10.049
x	-10.0491
h	-10.0492
’	-10.0492
