<unk>	0
<s>	0
</s>	0
s	-2.53249
▁-	-2.70165
ed	-3.08
▁	-3.13095
es	-3.43391
▁a	-3.64652
e	-3.79138
t	-3.84276
▁an	-3.91738
▁the	-3.93636
r	-3.98808
o	-4.03446
ing	-4.03524
i	-4.12225
d	-4.30093
l	-4.3373
a	-4.35415
u	-4.40065
m	-4.47675
c	-4.4819
▁in	-4.67077
p	-4.72032
er	-4.77467
n	-4.81007
▁on	-4.85617
▁at	-4.89465
al	-4.90169
y	-5.01914
g	-5.11606
▁re	-5.2106
in	-5.32687
b	-5.33828
or	-5.35476
▁s	-5.41416
▁f	-5.53896
en	-5.54929
th	-5.57174
ic	-5.61452
an	-5.65567
ar	-5.6821
▁ac	-5.70293
▁b	-5.71091
▁ai	-5.75866
w	-5.76585
▁ak	-5.79361
f	-5.79707
▁ax	-5.80124
▁ab	-5.81644
ch	-5.82504
▁aj	-5.855
▁im	-5.8683
▁os	-5.87224
▁ag	-5.88684
v	-5.89052
▁ar	-5.89779
▁aw	-5.90119
▁au	-5.91074
▁co	-5.93057
at	-5.93353
▁av	-5.93575
▁g	-5.95633
▁ay	-5.96011
ot	-6.00841
▁ao	-6.03187
▁en	-6.04561
▁pr	-6.05033
▁con	-6.0531
▁st	-6.08595
ate	-6.09802
on	-6.10654
▁ig	-6.11109
▁ap	-6.11749
ation	-6.14864
ce	-6.16062
▁ma	-6.18896
tion	-6.20367
ist	-6.20505
▁il	-6.2175
▁ip	-6.23412
▁ib	-6.23757
ll	-6.25078
▁ir	-6.28647
-	-6.30606
▁dis	-6.30651
▁iy	-6.30823
re	-6.30874
▁ys	-6.33364
▁po	-6.33465
ion	-6.3348
tic	-6.33837
ve	-6.34917
▁n	-6.36292
k	-6.37594
▁tha	-6.38767
▁comp	-6.3941
▁de	-6.39645
tor	-6.41727
▁un	-6.42269
▁lo	-6.428
able	-6.4605
ous	-6.46575
▁ha	-6.46821
▁es	-6.47325
▁mo	-6.47672
ide	-6.51298
▁tho	-6.53277
z	-6.54876
ul	-6.549
est	-6.56681
j	-6.5925
ity	-6.61337
▁pre	-6.63129
ish	-6.63296
▁me	-6.64312
ound	-6.64762
▁que	-6.6548
▁spe	-6.67817
and	-6.7037
lat	-6.71937
vi	-6.73387
pp	-6.7443
ments	-6.74989
▁we	-6.75715
ke	-6.761
qua	-6.77092
ting	-6.77553
▁fa	-6.77869
▁gre	-6.78564
eg	-6.80031
▁ix	-6.80468
ppe	-6.81008
▁od	-6.81341
▁thi	-6.83831
▁swe	-6.84865
▁bu	-6.86127
nk	-6.8622
▁iv	-6.86788
end	-6.86878
ng	-6.87037
▁pa	-6.89247
▁count	-6.89371
▁ic	-6.89425
ive	-6.91659
▁dep	-6.93301
tur	-6.93348
▁ro	-6.93687
▁whe	-6.95106
▁pu	-6.96564
▁sce	-6.97074
▁kne	-6.97098
▁dre	-6.97219
ite	-6.97471
▁sli	-6.98185
▁se	-6.99272
▁per	-7.01566
ven	-7.02762
▁fre	-7.02772
▁wre	-7.04427
▁sve	-7.04802
▁fris	-7.05488
▁mi	-7.06226
▁twe	-7.06584
ck	-7.06626
▁gle	-7.06674
own	-7.07217
▁gwe	-7.07711
▁iz	-7.078
▁cre	-7.07815
tern	-7.07868
▁ud	-7.08495
▁pi	-7.0888
nts	-7.09097
▁fle	-7.09903
▁ske	-7.09914
▁sme	-7.10175
▁ble	-7.10578
ash	-7.11137
▁ra	-7.11232
▁cross	-7.1226
▁sle	-7.13707
▁che	-7.13772
▁ball	-7.14683
age	-7.14813
▁thim	-7.15069
▁wa	-7.15655
▁fl	-7.15776
▁plis	-7.15833
▁influ	-7.15842
▁thys	-7.15843
▁ca	-7.16965
▁emb	-7.17942
▁snis	-7.18296
▁chu	-7.18484
▁tra	-7.18616
ment	-7.19235
.	-7.19536
▁phe	-7.19536
▁lea	-7.19767
▁ple	-7.20816
ities	-7.20825
▁quis	-7.22084
▁dra	-7.22598
▁cze	-7.247
▁office	-7.24742
▁tre	-7.24986
▁thir	-7.26167
▁la	-7.27648
▁thu	-7.27656
▁whis	-7.28753
success	-7.28753
▁list	-7.31726
▁non	-7.32298
part	-7.36082
ters	-7.36373
▁ob	-7.36431
▁fol	-7.37534
ils	-7.38476
▁hor	-7.38906
gene	-7.3931
ight	-7.40445
▁do	-7.44679
mone	-7.447
▁inte	-7.44973
▁acqui	-7.45208
▁campaign	-7.45208
ble	-7.46596
ful	-7.47721
▁pris	-7.49045
amb	-7.502
▁recogni	-7.50209
▁geologist	-7.50211
▁ear	-7.50827
▁oc	-7.51643
▁philosoph	-7.51933
▁lantern	-7.51934
out	-7.53026
wave	-7.53285
tract	-7.55536
▁rest	-7.55734
vers	-7.56228
▁award	-7.57319
▁prov	-7.57358
ocat	-7.58617
aliz	-7.59177
▁collaboration	-7.6103
▁consider	-7.61031
tim	-7.6199
▁cla	-7.62668
▁rebuild	-7.62953
uff	-7.62976
▁warp	-7.6298
▁agree	-7.62985
itt	-7.6432
▁continent	-7.64913
ecture	-7.64926
ipulat	-7.64943
insula	-7.65346
▁fok	-7.66938
low	-7.67069
cultur	-7.67518
▁beach	-7.68955
gaz	-7.69091
▁interv	-7.69285
▁displace	-7.71038
▁overs	-7.71123
mater	-7.7237
▁divid	-7.73165
▁calcul	-7.73165
▁desert	-7.73172
▁opt	-7.73194
curr	-7.73201
room	-7.73588
ipa	-7.74453
port	-7.75177
▁brains	-7.75362
igu	-7.75594
bil	-7.77435
▁symptom	-7.77561
▁week	-7.77572
▁bri	-7.778
▁wi	-7.78053
▁dr	-7.78495
▁militaries	-7.79834
reli	-7.79884
▁inf	-7.8081
fect	-7.80882
▁direct	-7.8216
▁fullness	-7.8216
▁safeguard	-7.8216
▁reproduc	-7.82193
emp	-7.82695
ecti	-7.8372
act	-7.83809
acc	-7.84236
▁breath	-7.84541
▁activ	-7.84542
▁inclu	-7.84545
▁rid	-7.85133
▁limit	-7.8698
▁break	-7.8698
▁citizen	-7.8948
▁taunts	-7.8948
orders	-7.89493
▁archi	-7.89526
▁want	-7.89578
▁pen	-7.89856
▁fea	-7.90023
ligi	-7.90697
▁effort	-7.92044
holi	-7.92044
▁elect	-7.92044
▁reform	-7.92044
▁tour	-7.92045
▁appear	-7.92074
ematic	-7.92215
ife	-7.92331
▁last	-7.92558
▁sou	-7.92572
design	-7.93811
▁behav	-7.94675
▁objecti	-7.94675
▁hackers	-7.94676
▁outl	-7.94761
▁opportun	-7.97378
▁preconditions	-7.97378
▁summit	-7.97378
taph	-7.97378
▁attempt	-7.97379
▁tempt	-7.9738
▁uncle	-7.97385
▁bann	-7.97408
rac	-7.97642
▁antiques	-8.00156
▁cemetery	-8.00156
▁institutions	-8.00156
▁jurisdictions	-8.00156
▁chair	-8.00156
▁measur	-8.00156
▁finish	-8.00164
bell	-8.00222
cup	-8.00509
rain	-8.01035
▁represent	-8.02471
▁channels	-8.03013
▁character	-8.03013
▁vibrat	-8.03013
main	-8.0322
▁wor	-8.03221
vert	-8.03633
▁arbitrariness	-8.05954
▁vindication	-8.05954
▁style	-8.05956
▁lofts	-8.05957
solv	-8.05988
gerat	-8.0605
▁raci	-8.06075
dge	-8.08389
▁short	-8.08984
▁babinos	-8.08984
▁botanicals	-8.08984
▁dispersion	-8.08984
▁frontline	-8.08984
▁heels	-8.08984
▁hostel	-8.08984
▁roadway	-8.08984
▁tailor	-8.08984
▁verticalization	-8.08984
▁plac	-8.08985
▁radio	-8.08985
▁appearance	-8.08986
▁cocoa	-8.08986
▁session	-8.09001
ours	-8.09075
comp	-8.11115
evaluate	-8.12109
▁armholes	-8.12109
▁censuses	-8.12109
▁expropriation	-8.12109
▁fanfics	-8.12109
▁neighbors	-8.12109
▁vapour	-8.12109
▁pictures	-8.1211
rbon	-8.1218
▁ambassadors	-8.15335
▁capacity	-8.15335
▁intersect	-8.15335
▁quantif	-8.15335
▁science	-8.15335
▁defectors	-8.15335
▁reign	-8.15337
▁contours	-8.15341
▁order	-8.15345
▁fow	-8.1541
▁cease	-8.1542
ntain	-8.15518
strate	-8.15748
sign	-8.16429
▁credential	-8.18669
▁crossroads	-8.18669
▁generations	-8.18669
▁gentleman	-8.18669
▁hurdles	-8.18669
▁inhalation	-8.18669
▁territory	-8.18669
▁toilet	-8.18669
▁handle	-8.18669
▁powers	-8.1867
▁communi	-8.18769
▁foy	-8.18833
eologis	-8.22111
▁conclusions	-8.22117
▁differences	-8.22117
▁festoons	-8.22117
▁hurtle	-8.22117
▁investments	-8.22117
▁jellies	-8.22117
▁laugh	-8.22117
▁misconception	-8.22117
▁overview	-8.22117
▁shelter	-8.22117
▁unfold	-8.22117
▁bicycling	-8.22117
▁album	-8.22117
▁demise	-8.22117
▁policing	-8.22117
▁perlite	-8.22121
▁walk	-8.22125
▁fof	-8.22195
▁spare	-8.22311
tize	-8.22406
▁uncontro	-8.22439
utter	-8.22654
claim	-8.22661
▁off	-8.25572
▁denomination	-8.25688
▁grandmother	-8.25688
▁injection	-8.25688
▁pregnancy	-8.25688
▁bourbon	-8.25688
▁component	-8.25688
▁tragedy	-8.25689
▁dessert	-8.25689
pathize	-8.25689
nounce	-8.25691
cycl	-8.25692
▁pattern	-8.25695
▁interest	-8.25712
▁commercial	-8.29392
▁edifices	-8.29392
▁explorers	-8.29392
▁farriers	-8.29392
▁guardians	-8.29392
▁mathematicians	-8.29392
▁neckhole	-8.29392
▁reflection	-8.29392
▁sculptures	-8.29392
▁society	-8.29392
▁demotion	-8.29392
front	-8.29393
stream	-8.29393
▁oceans	-8.29394
▁creases	-8.29403
mail	-8.29403
struct	-8.29515
0	-8.33238
1	-8.33238
▁aqueducts	-8.33238
▁calendar	-8.33238
▁centerpiece	-8.33238
▁citations	-8.33238
▁glyphs	-8.33238
▁holder	-8.33238
▁imagination	-8.33238
▁impression	-8.33238
▁malfunction	-8.33238
▁minorities	-8.33238
▁particles	-8.33238
▁preservatives	-8.33238
▁supplies	-8.33238
▁seasons	-8.33238
▁vessel	-8.33238
8	-8.33239
9	-8.33239
▁payment	-8.3324
▁consum	-8.33249
▁popul	-8.33249
▁faith	-8.33268
blishe	-8.33281
piece	-8.33696
equent	-8.37238
scientology	-8.37238
▁boundaries	-8.37238
▁capacities	-8.37238
▁capsules	-8.37238
▁certificates	-8.37238
▁tarpaulin	-8.37238
▁rescue	-8.37239
▁worlds	-8.3724
▁tails	-8.37241
enfranchisement	-8.41405
▁baseball	-8.41405
▁emergency	-8.41405
▁foreigners	-8.41405
’	-9.43048
q	-9.55529
x	-9.55539
)	-9.55548
(	-9.55549
h	-9.55549
