<unk>	0
<s>	0
</s>	0
s	-2.51309
▁-	-2.64335
▁	-2.76556
ed	-3.04761
es	-3.33788
▁a	-3.62521
e	-3.84704
▁an	-3.88629
▁the	-3.9474
ing	-3.99523
t	-4.20829
l	-4.2714
d	-4.38824
i	-4.4853
a	-4.51462
▁in	-4.51932
m	-4.71066
c	-4.74891
p	-4.75745
o	-4.75755
r	-4.76152
▁on	-4.77265
▁at	-4.77734
y	-4.86186
n	-4.92686
g	-4.94204
er	-5.0149
al	-5.11867
▁ax	-5.12296
▁ab	-5.12637
b	-5.15494
▁ar	-5.15578
▁ak	-5.16856
ar	-5.18493
▁ag	-5.19354
▁ay	-5.23035
▁aw	-5.23334
▁ap	-5.23873
▁re	-5.32853
or	-5.34052
▁b	-5.40756
ic	-5.42234
▁ac	-5.42981
▁au	-5.46027
▁av	-5.51311
▁ao	-5.55111
▁aj	-5.58543
at	-5.58554
▁p	-5.58574
in	-5.58655
▁ai	-5.609
v	-5.61546
th	-5.6784
w	-5.73442
le	-5.75193
en	-5.78466
ion	-5.79215
▁en	-5.85316
tion	-5.8768
ers	-5.91473
▁os	-5.91883
▁c	-5.9487
f	-5.94874
▁g	-5.98338
ri	-5.99549
on	-6.00127
ation	-6.00558
▁st	-6.03494
ate	-6.04818
▁t	-6.06078
▁f	-6.08153
ti	-6.10472
▁od	-6.11689
▁un	-6.16882
▁que	-6.17782
-	-6.18404
ol	-6.19838
ect	-6.21358
▁de	-6.25669
▁fre	-6.26364
▁ys	-6.28647
able	-6.30692
▁wa	-6.32386
z	-6.32994
no	-6.34956
▁tha	-6.35343
ous	-6.35779
▁dis	-6.35887
▁thi	-6.37051
▁thu	-6.37484
▁tho	-6.3874
▁sce	-6.40269
ist	-6.40616
re	-6.41168
pp	-6.41287
▁twe	-6.42191
▁con	-6.44337
▁ple	-6.44934
ment	-6.45344
▁co	-6.47658
▁comp	-6.49233
▁po	-6.49483
▁wre	-6.49682
▁whe	-6.50306
▁ble	-6.52069
▁ma	-6.53824
our	-6.57777
ap	-6.68607
j	-6.70263
k	-6.70563
ive	-6.72916
▁mi	-6.73206
ng	-6.73628
ite	-6.73649
▁fa	-6.74339
▁we	-6.7585
ish	-6.76177
and	-6.76723
end	-6.78007
▁me	-6.79648
▁per	-6.81011
ide	-6.8261
nk	-6.84101
lat	-6.84362
ence	-6.84599
tic	-6.8585
ash	-6.88757
ure	-6.8976
vi	-6.89802
mo	-6.89924
ell	-6.91777
ight	-6.92242
▁cr	-6.93522
cent	-6.93796
▁pr	-6.96936
▁j	-6.97757
▁pro	-6.98725
▁ot	-6.99614
out	-7.01552
▁ra	-7.01789
tur	-7.04149
ting	-7.042
tern	-7.05669
atic	-7.07644
▁office	-7.07661
▁imp	-7.07667
▁emb	-7.07751
▁bi	-7.08
x	-7.08045
▁dra	-7.08845
▁si	-7.10991
ro	-7.11994
nts	-7.12253
ack	-7.12605
over	-7.13904
▁sw	-7.1566
▁count	-7.1609
▁sc	-7.16099
ast	-7.16371
▁ro	-7.16832
▁oc	-7.19213
lit	-7.19335
ian	-7.20469
ical	-7.21332
man	-7.22341
▁cross	-7.22604
▁di	-7.23205
▁air	-7.24424
▁pre	-7.25186
.	-7.25317
ful	-7.25317
▁influ	-7.25317
port	-7.25332
▁tail	-7.25335
▁gra	-7.26746
▁ex	-7.2743
▁geologist	-7.28114
min	-7.28719
ven	-7.31134
▁tra	-7.31726
own	-7.32493
▁na	-7.33502
ten	-7.33573
ities	-7.33983
▁agree	-7.33991
ble	-7.35807
▁ut	-7.37009
reign	-7.38576
act	-7.39493
▁ne	-7.40488
igh	-7.40835
▁recogni	-7.41772
ck	-7.42579
▁et	-7.4322
▁collaboration	-7.43411
▁og	-7.44008
mone	-7.44424
ounds	-7.45078
itt	-7.47167
wave	-7.47293
▁om	-7.47568
▁continent	-7.48497
▁inhal	-7.48497
▁objecti	-7.48497
▁listing	-7.48511
▁appea	-7.48693
tract	-7.50278
▁lo	-7.50286
cycl	-7.50304
oon	-7.50421
▁cla	-7.51973
▁beach	-7.52037
▁desert	-7.5204
ake	-7.52241
▁ref	-7.53307
nch	-7.53702
▁award	-7.53924
ipa	-7.55571
▁learn	-7.55708
▁exp	-7.56503
▁inte	-7.57721
ade	-7.57722
▁explo	-7.57918
▁la	-7.58394
▁chu	-7.59462
nanc	-7.59518
▁interv	-7.59711
ils	-7.59997
▁oy	-7.60306
▁week	-7.61484
gerat	-7.61515
text	-7.61756
▁non	-7.61862
▁li	-7.62126
mater	-7.62244
▁rebuild	-7.63477
▁symptom	-7.63477
aliz	-7.63502
ocat	-7.6364
line	-7.64288
ept	-7.64465
▁loca	-7.6471
tan	-7.65461
cultur	-7.65518
▁partic	-7.65524
lies	-7.66246
found	-7.67602
▁citizen	-7.67602
▁safeguard	-7.67602
▁emerge	-7.67602
▁lantern	-7.67602
▁gener	-7.67615
acc	-7.67704
▁prov	-7.68352
▁campaign	-7.69729
taph	-7.69729
▁limit	-7.69729
rve	-7.69813
▁loo	-7.69926
gam	-7.70313
sci	-7.71155
▁slip	-7.71386
▁capacit	-7.71903
orders	-7.71951
ggin	-7.72157
▁tempt	-7.74125
ras	-7.74594
▁coll	-7.74917
ook	-7.75384
ctor	-7.76201
ece	-7.76386
▁displace	-7.76398
▁breath	-7.76398
▁defe	-7.76605
▁demo	-7.79264
chan	-7.81103
insula	-7.81105
▁brains	-7.81105
▁canvas	-7.81105
▁shape	-7.81105
▁considerat	-7.81105
mail	-7.83547
reli	-7.84004
ett	-7.85152
ipulat	-7.86044
▁festivals	-7.86044
uff	-7.86044
front	-7.86048
▁reform	-7.8605
▁obse	-7.86055
▁reproduc	-7.86078
love	-7.86316
▁movi	-7.86436
comp	-7.87753
▁connotations	-7.88608
curr	-7.88608
▁divid	-7.88618
▁flats	-7.88671
▁spare	-7.88743
ood	-7.88841
▁last	-7.89154
▁appellants	-7.91239
▁armholes	-7.91239
▁measur	-7.91239
▁break	-7.9124
▁plac	-7.91241
view	-7.9126
▁fest	-7.91607
road	-7.91651
ower	-7.93281
▁calcul	-7.93942
▁hospitality	-7.93942
▁longitude	-7.93942
▁philosoph	-7.93942
▁citations	-7.93942
▁intersect	-7.93943
▁post	-7.94465
conce	-7.95079
▁subs	-7.9672
arch	-7.9672
▁attempt	-7.9672
▁hours	-7.9672
▁opportun	-7.9672
▁scoreboard	-7.9672
design	-7.9672
ffer	-7.96754
▁trans	-7.96835
ossi	-7.96888
fund	-7.99577
quent	-7.99577
▁architecture	-7.99577
▁effort	-7.99577
▁pictographs	-7.99577
▁preconditions	-7.99577
▁tooth	-7.99577
defin	-7.99578
▁interest	-7.99582
▁activ	-7.99591
▁elect	-7.99627
strate	-7.99694
▁wor	-7.99872
ndar	-8.01511
▁ambassadors	-8.02518
▁destinations	-8.02518
▁investments	-8.02518
▁magazines	-8.02518
▁seasons	-8.02518
▁shelter	-8.02518
▁shortage	-8.02518
▁model	-8.02518
▁ballet	-8.02519
▁bann	-8.02519
▁finish	-8.02522
xie	-8.02903
▁ballroom	-8.05548
▁hostel	-8.05548
▁inclu	-8.05548
▁depots	-8.05549
▁dryer	-8.05549
stream	-8.05549
▁farmer	-8.05549
▁uncle	-8.05568
▁aff	-8.05606
dise	-8.05621
▁want	-8.05702
amp	-8.05796
slam	-8.05962
vert	-8.07025
▁sli	-8.07216
courage	-8.08673
▁ballot	-8.08673
▁biologist	-8.08673
▁conspiracy	-8.08673
▁enjambment	-8.08673
▁guardians	-8.08673
▁hea	-8.08673
▁midwife	-8.08673
▁skydivers	-8.08673
▁sur	-8.08673
▁acquisition	-8.08674
▁cloth	-8.08674
▁dessert	-8.08674
▁channel	-8.08674
▁direct	-8.08678
reve	-8.09537
bot	-8.10881
▁commercial	-8.11899
▁congratulate	-8.11899
▁habit	-8.11899
▁prototypes	-8.11899
▁oppos	-8.11899
▁payment	-8.11899
▁errors	-8.119
▁chance	-8.11901
▁fears	-8.11907
▁large	-8.11907
▁slice	-8.11921
ntain	-8.12008
▁punc	-8.12173
▁retr	-8.14554
▁uncontro	-8.14944
▁asbestos	-8.15233
▁malfunction	-8.15233
▁neckhole	-8.15233
▁neologism	-8.15233
▁restraint	-8.15233
▁summit	-8.15233
▁territory	-8.15233
▁creases	-8.15233
▁cocoa	-8.15233
▁chutes	-8.15329
▁communi	-8.15333
solv	-8.1545
munic	-8.18578
▁afternoon	-8.18681
▁album	-8.18681
▁cemetery	-8.18681
▁hotspots	-8.18681
▁improvements	-8.18681
▁preservatives	-8.18681
▁puppets	-8.18681
▁recipe	-8.18681
▁saponins	-8.18681
▁society	-8.18681
▁dispersion	-8.18681
▁readings	-8.18681
▁contours	-8.18682
▁crossroads	-8.18689
▁order	-8.1869
way	-8.18778
forma	-8.18815
publi	-8.19599
▁aqueducts	-8.22252
▁arbitrariness	-8.22252
▁costumes	-8.22252
▁fullness	-8.22252
▁speech	-8.22252
▁folks	-8.22252
▁adapt	-8.22255
▁towns	-8.22318
rac	-8.25246
ligi	-8.25372
representati	-8.25956
round	-8.25956
tumbl	-8.25956
▁baseball	-8.25956
▁behaviors	-8.25956
▁carbons	-8.25956
▁character	-8.25956
▁conclusions	-8.25956
▁credential	-8.25956
▁depictions	-8.25956
▁fuels	-8.25956
▁hurtle	-8.25956
▁laugh	-8.25956
▁stonework	-8.25956
▁vibrat	-8.25956
▁farriers	-8.25956
▁lakefront	-8.25956
▁vessel	-8.25956
▁command	-8.25956
▁pictures	-8.25956
▁basils	-8.25957
▁record	-8.25957
▁rides	-8.26003
rco	-8.26275
mote	-8.2824
▁acqui	-8.29802
▁appearance	-8.29802
▁boundaries	-8.29802
▁censuses	-8.29802
▁constru	-8.29802
▁discourse	-8.29802
▁domain	-8.29802
▁imagination	-8.29802
▁impression	-8.29802
▁marketing	-8.29802
▁optogenetics	-8.29802
▁secularist	-8.29802
▁plant	-8.29802
▁faith	-8.29821
▁countries	-8.29834
claim	-8.30133
mili	-8.31876
enfranchisement	-8.33802
evaluate	-8.33802
nounce	-8.33802
▁departure	-8.33802
▁guarantee	-8.33802
▁guests	-8.33802
▁pilgrims	-8.33802
▁sculptures	-8.33802
▁taunts	-8.33802
▁verticalization	-8.33802
▁racism	-8.33802
▁illu	-8.33802
▁landings	-8.33803
▁style	-8.33831
control	-8.34155
0	-8.42317
1	-8.42317
8	-8.42317
9	-8.42317
(	-9.0941
)	-9.0941
q	-9.52092
u	-9.52102
h	-9.52112
’	-9.52112
