<unk>	0
<s>	0
</s>	0
▁-	-2.16902
s	-2.42149
ed	-2.79724
▁	-2.95677
es	-3.02385
▁a	-3.20332
▁an	-3.36917
▁the	-3.37426
e	-3.78496
ing	-4.03528
▁in	-4.11441
t	-4.15197
▁on	-4.27396
▁at	-4.30053
r	-4.40038
l	-4.43176
a	-4.47008
u	-4.48261
n	-4.48352
i	-4.52584
d	-4.59611
m	-4.75418
p	-4.78628
y	-4.86196
c	-4.90426
o	-5.02934
al	-5.26418
er	-5.30481
▁re	-5.3286
b	-5.49485
at	-5.52545
v	-5.53743
f	-5.54774
in	-5.58411
th	-5.62731
g	-5.68897
or	-5.69111
▁p	-5.88813
tion	-5.93128
ion	-5.93242
le	-5.96378
ic	-6.02714
ation	-6.05457
▁de	-6.0764
it	-6.07846
▁c	-6.1521
▁st	-6.15767
▁con	-6.16978
▁co	-6.17799
ll	-6.18099
▁dis	-6.252
ers	-6.26225
▁ha	-6.33658
-	-6.35801
re	-6.37584
ate	-6.37964
on	-6.39289
te	-6.42787
▁un	-6.44205
ous	-6.44979
able	-6.45534
▁ma	-6.48791
▁g	-6.50522
▁b	-6.51907
ck	-6.52856
▁fa	-6.54303
z	-6.5518
co	-6.55945
ng	-6.56735
k	-6.59835
an	-6.61311
▁d	-6.61689
mo	-6.62798
ppe	-6.62822
ive	-6.63642
ist	-6.63969
ce	-6.65608
▁ch	-6.68062
no	-6.68601
ments	-6.73394
▁bu	-6.76024
▁mi	-6.77134
▁ho	-6.81837
▁imp	-6.83671
ide	-6.85421
ish	-6.85461
▁ba	-6.87888
▁lo	-6.88326
▁si	-6.8938
▁cross	-6.92006
fe	-6.92939
ite	-6.93865
tic	-6.94906
gree	-6.95994
ping	-6.97141
atic	-6.9715
nts	-6.97337
▁pro	-6.97337
▁pre	-6.97347
ot	-6.97552
▁j	-6.97723
ard	-6.99095
ven	-6.99111
order	-7.00161
and	-7.00672
our	-7.00878
▁to	-7.03297
ity	-7.04325
act	-7.05665
ical	-7.07031
▁comp	-7.07733
▁sw	-7.08799
▁la	-7.09122
ight	-7.10675
▁pr	-7.12715
▁sli	-7.12975
oon	-7.14928
nding	-7.16888
ect	-7.17735
▁fr	-7.1798
ound	-7.19566
▁per	-7.20063
ian	-7.20461
tim	-7.2242
▁pu	-7.23462
tur	-7.24266
ress	-7.24663
ture	-7.24717
▁recogni	-7.24882
age	-7.24976
gra	-7.25371
▁appear	-7.26235
▁office	-7.26301
▁bo	-7.26839
ful	-7.26943
ake	-7.2765
man	-7.27883
ip	-7.29829
art	-7.31477
centr	-7.32331
▁war	-7.33279
road	-7.33288
ble	-7.33904
tract	-7.3479
sign	-7.36285
▁over	-7.36469
▁li	-7.38298
▁inte	-7.38414
▁bi	-7.39175
success	-7.39296
reign	-7.40862
orm	-7.41059
▁wave	-7.42445
▁capacit	-7.42448
▁pa	-7.43926
.	-7.44058
par	-7.44717
▁citizen	-7.45698
ular	-7.45701
▁desert	-7.45895
▁ball	-7.461
▁ear	-7.4739
port	-7.47617
▁sec	-7.47782
▁respon	-7.49063
aliz	-7.49074
▁bound	-7.49302
▁fo	-7.49897
ment	-7.50324
▁beach	-7.50783
▁dra	-7.50811
▁read	-7.52638
vers	-7.53944
▁continent	-7.54323
j	-7.54771
▁air	-7.5532
▁tail	-7.56142
ities	-7.56399
▁sp	-7.57037
▁tra	-7.57943
hole	-7.57993
▁non	-7.5832
ook	-7.5897
▁prot	-7.59202
nds	-7.60348
educ	-7.61304
low	-7.61803
▁collaboration	-7.61803
▁learn	-7.61803
▁fi	-7.62785
den	-7.62786
sert	-7.63002
▁fu	-7.63464
work	-7.63764
vel	-7.63973
ance	-7.64229
tan	-7.64345
▁compa	-7.65697
ndi	-7.68267
▁breath	-7.69888
opp	-7.70157
fect	-7.70501
▁symptom	-7.72016
urdle	-7.72018
cultur	-7.72047
holi	-7.72183
diver	-7.72187
rac	-7.72224
tern	-7.72286
▁objecti	-7.7419
▁displace	-7.7419
solv	-7.74196
▁partic	-7.742
ctors	-7.7432
flat	-7.74377
magi	-7.74568
text	-7.76412
▁campaign	-7.76412
lux	-7.76412
umb	-7.76554
▁vo	-7.76717
▁demo	-7.77162
▁stor	-7.77588
▁safeguard	-7.78685
▁activ	-7.78685
▁brains	-7.78696
igh	-7.79547
▁represent	-7.7991
conce	-7.80018
town	-7.8101
▁calcul	-7.8101
▁break	-7.81011
▁geologist	-7.81012
gaz	-7.81088
▁flo	-7.823
count	-7.82886
▁opportun	-7.83391
▁emerge	-7.83391
▁lantern	-7.83392
gate	-7.83483
ood	-7.83496
▁defe	-7.84114
ept	-7.84899
▁sou	-7.85746
▁channel	-7.8583
▁reproduc	-7.85842
uris	-7.86235
line	-7.87149
▁attempt	-7.8833
▁divide	-7.8833
▁optogenetics	-7.8833
▁bann	-7.88371
▁last	-7.88633
▁philosoph	-7.90894
▁component	-7.90894
▁vibrat	-7.90894
room	-7.90896
▁subs	-7.90899
▁invest	-7.90908
▁crea	-7.91055
▁depictions	-7.93526
▁outro	-7.93526
▁uncle	-7.93535
▁hea	-7.96229
▁sculptures	-7.96229
▁waist	-7.96229
▁websites	-7.96229
▁intersect	-7.96229
defin	-7.9623
▁listings	-7.96366
reserv	-7.9641
then	-7.96478
equent	-7.99006
▁summ	-7.99008
unk	-7.99057
▁tales	-7.9907
▁cap	-7.99071
tack	-7.99078
▁gran	-7.99127
ators	-7.99385
eans	-7.99709
igu	-8.01501
▁congratulate	-8.01864
▁domain	-8.01864
▁robots	-8.01864
▁considerat	-8.01864
stream	-8.01864
▁chair	-8.01864
▁pictures	-8.01865
▁bri	-8.01932
ntain	-8.01955
▁movi	-8.02223
ossi	-8.02705
retti	-8.02951
rove	-8.03841
rri	-8.04038
▁oc	-8.04162
▁architecture	-8.04805
▁baseball	-8.04805
▁brightness	-8.04805
▁countries	-8.04805
▁decisions	-8.04805
▁guardians	-8.04805
▁hospitality	-8.04805
▁ballet	-8.04865
▁sma	-8.04936
cup	-8.05965
▁explo	-8.07832
▁embarrassment	-8.07835
▁expropriation	-8.07835
▁intervals	-8.07835
▁pixie	-8.07835
▁tarpaulin	-8.07835
▁want	-8.07835
▁plant	-8.07835
▁farriers	-8.07835
▁hostel	-8.07836
▁inclu	-8.0784
▁gator	-8.07843
▁obse	-8.07855
▁under	-8.07862
▁met	-8.07879
curr	-8.097
olic	-8.1081
▁calendar	-8.1096
▁character	-8.1096
▁edifices	-8.1096
▁institutions	-8.1096
▁limitations	-8.1096
▁seasons	-8.1096
▁shelter	-8.1096
▁speech	-8.1096
▁westerners	-8.1096
▁interest	-8.10963
▁explorers	-8.10963
▁pattern	-8.10964
piece	-8.10968
▁trans	-8.11128
ame	-8.11522
rank	-8.11837
▁list	-8.12026
rain	-8.12857
ocat	-8.13762
▁rosters	-8.14186
▁stipulation	-8.14186
▁plac	-8.14187
mail	-8.1419
▁tooth	-8.14193
▁spare	-8.14236
▁county	-8.14241
▁paths	-8.14257
▁communi	-8.14307
▁rid	-8.14529
▁quantif	-8.17519
▁distortions	-8.17519
▁territory	-8.17519
▁verticalization	-8.17519
▁cycle	-8.17519
▁limits	-8.1752
▁generations	-8.17538
▁prices	-8.17561
▁pict	-8.17565
strate	-8.17664
reli	-8.18445
▁para	-8.18472
view	-8.20967
▁claws	-8.20967
▁conclusions	-8.20967
▁connotations	-8.20967
▁crown	-8.20967
▁electrons	-8.20967
▁glyphs	-8.20967
▁iceberg	-8.20967
▁measur	-8.20967
▁provocation	-8.20967
▁rebuild	-8.20967
▁direct	-8.20968
▁model	-8.20968
▁carbons	-8.20968
▁guests	-8.20968
▁finish	-8.2097
▁stink	-8.20972
▁emb	-8.20979
▁local	-8.20982
sterners	-8.21003
nanc	-8.21011
ligi	-8.21081
▁sur	-8.21195
▁gar	-8.21236
forma	-8.21707
ggl	-8.22156
fund	-8.24178
▁optimi	-8.24539
▁centerpiece	-8.24539
▁enjambment	-8.24539
▁inhalation	-8.24539
▁kinematics	-8.24539
▁lakefront	-8.24539
▁anemone	-8.24539
▁acquisition	-8.24539
▁anime	-8.24566
▁counter	-8.24581
▁raci	-8.24631
tize	-8.24677
▁stru	-8.24781
ugg	-8.27613
munic	-8.28104
▁acqui	-8.28242
▁hurtle	-8.28243
▁pathways	-8.28243
▁radio	-8.28243
▁shape	-8.28243
▁supplies	-8.28243
▁touch	-8.28243
claim	-8.28243
▁nerves	-8.28243
▁farmer	-8.28243
▁depots	-8.28243
▁weekends	-8.28244
▁large	-8.28246
▁illu	-8.28248
▁games	-8.28266
bell	-8.28324
▁fest	-8.2833
▁uncontro	-8.28522
rbon	-8.28841
mater	-8.29336
▁discou	-8.30427
cent	-8.30841
▁gener	-8.32068
eologis	-8.32087
▁accomplishments	-8.32089
▁asbestos	-8.32089
▁behaviors	-8.32089
▁cenotaph	-8.32089
▁fanfics	-8.32089
▁influences	-8.32089
▁molecules	-8.32089
▁saponins	-8.32089
▁society	-8.32089
▁tenure	-8.32089
▁unknowns	-8.32089
▁walk	-8.32089
▁wash	-8.32089
▁decoration	-8.32089
▁masters	-8.32091
▁emblem	-8.32092
aries	-8.32118
front	-8.32256
pathize	-8.36089
▁anchorage	-8.36089
▁arbitrariness	-8.36089
▁costumes	-8.36089
▁effort	-8.36089
▁injection	-8.36089
▁islamophobia	-8.36089
▁marketing	-8.36089
▁minorities	-8.36089
▁podcasts	-8.36089
▁refrigerators	-8.36089
▁restaurant	-8.36089
▁vaccine	-8.36089
▁biologist	-8.36089
danger	-8.3609
loom	-8.3609
▁constru	-8.36342
▁cease	-8.3635
ggin	-8.40062
enfranchisement	-8.40255
unch	-8.40255
▁bicycling	-8.40255
▁brevet	-8.40255
▁hints	-8.40255
▁interventions	-8.40255
▁malfunction	-8.40255
▁queues	-8.40255
▁ragamuffin	-8.40255
▁shortage	-8.40255
▁album	-8.40256
cribe	-8.40256
▁perils	-8.40259
evaluate	-8.44603
▁festivals	-8.44603
▁flash	-8.44603
▁laugh	-8.44603
▁longitude	-8.44603
▁militaries	-8.44603
▁modernity	-8.44603
▁monarch	-8.44603
▁peninsula	-8.44603
▁temptation	-8.44603
▁parole	-8.44604
▁recipe	-8.44604
▁cloth	-8.44604
▁folks	-8.44604
▁dryer	-8.44604
▁play	-8.44605
▁post	-8.44617
0	-8.75612
1	-8.75612
8	-8.75612
9	-8.75612
)	-9.11697
(	-9.11697
q	-9.54369
x	-9.54379
w	-9.54389
h	-9.54399
’	-9.54399
