<unk>	0
<s>	0
</s>	0
s	-2.54212
▁-	-2.73352
ed	-3.12549
▁	-3.35007
es	-3.3912
▁a	-3.66197
e	-3.86729
t	-3.92263
▁the	-3.92957
▁an	-3.94468
o	-3.98479
ing	-4.04002
l	-4.0424
d	-4.205
a	-4.3561
i	-4.4766
p	-4.48684
u	-4.53129
▁in	-4.56296
r	-4.56994
n	-4.57865
m	-4.61572
er	-4.73182
y	-4.81195
▁on	-4.82604
▁at	-4.85487
c	-4.90438
or	-4.98082
in	-5.02865
g	-5.06188
▁s	-5.08824
b	-5.09994
▁re	-5.18494
al	-5.20419
ar	-5.38009
en	-5.44339
at	-5.49567
▁ar	-5.61919
f	-5.62173
▁ac	-5.62757
th	-5.63728
▁f	-5.68793
ic	-5.69702
▁aj	-5.70747
▁ax	-5.73274
v	-5.73937
▁b	-5.76037
▁ak	-5.77554
▁aw	-5.82171
▁im	-5.8312
▁av	-5.83129
▁ab	-5.85603
▁h	-5.86869
▁ag	-5.87462
ion	-5.88521
▁os	-5.89767
▁ay	-5.9047
▁c	-5.91284
it	-5.91865
ur	-5.94171
▁au	-5.95244
▁e	-5.95318
▁ai	-5.95545
▁ap	-5.97268
w	-5.99151
ch	-5.99679
k	-6.03752
▁g	-6.04591
le	-6.05288
▁st	-6.06224
▁ib	-6.07196
▁co	-6.07563
▁il	-6.08368
▁ao	-6.08809
tion	-6.08908
ation	-6.10245
▁pre	-6.10257
ate	-6.1042
on	-6.11542
▁iy	-6.16918
▁ig	-6.17811
▁de	-6.17968
▁dis	-6.18289
▁p	-6.19457
▁en	-6.22982
▁es	-6.24499
ist	-6.24773
▁un	-6.25089
ri	-6.25992
▁ip	-6.26171
▁fa	-6.26432
▁ir	-6.26723
▁ys	-6.27071
▁con	-6.29062
re	-6.30406
-	-6.3216
▁tha	-6.32314
co	-6.34385
ll	-6.3507
te	-6.3617
ck	-6.38373
▁tho	-6.41384
▁v	-6.41842
and	-6.4415
▁mo	-6.46672
▁ma	-6.49155
able	-6.512
ir	-6.51824
tor	-6.52638
ide	-6.52705
ting	-6.52711
ive	-6.52808
ous	-6.52865
▁w	-6.56592
z	-6.57135
▁ic	-6.58686
ect	-6.58898
▁wa	-6.61984
ish	-6.62175
▁comp	-6.62925
▁n	-6.70212
▁cre	-6.7026
▁iz	-6.70555
▁ho	-6.70718
▁spe	-6.71459
▁pro	-6.71933
▁que	-6.72107
▁iv	-6.73012
▁ix	-6.73727
▁po	-6.73835
▁od	-6.75309
▁mi	-6.77215
ant	-6.77713
ments	-6.79625
▁swe	-6.82596
▁gre	-6.8458
eg	-6.85556
ite	-6.85913
tic	-6.86408
.	-6.88667
▁count	-6.89623
▁ba	-6.91767
▁pris	-6.92665
▁pr	-6.93398
ial	-6.93926
ian	-6.96015
tur	-6.96279
▁che	-6.96729
▁we	-6.97191
▁phe	-6.97583
▁ra	-6.97703
▁me	-6.98503
▁over	-7.00034
▁fre	-7.01825
▁snis	-7.04011
▁thys	-7.05122
fic	-7.06515
▁kne	-7.07375
vers	-7.07439
▁ball	-7.09001
▁fris	-7.09757
▁ble	-7.10783
ke	-7.11175
▁sle	-7.11269
▁thu	-7.12209
ity	-7.1257
▁ud	-7.12702
▁bi	-7.1286
▁gle	-7.12948
▁pi	-7.13109
▁thi	-7.13121
▁gwe	-7.13274
▁sve	-7.13326
▁dre	-7.13393
▁tre	-7.13431
ence	-7.14159
▁thim	-7.14231
▁plis	-7.14482
▁cze	-7.14488
▁gra	-7.14588
▁fle	-7.14653
▁sme	-7.14687
▁wre	-7.14921
▁quis	-7.15711
▁whis	-7.15711
▁office	-7.15712
▁cross	-7.15712
▁sce	-7.15872
▁ne	-7.16304
▁per	-7.17146
▁di	-7.1725
centr	-7.17688
▁ple	-7.20432
▁j	-7.20651
ical	-7.21047
ter	-7.21848
▁ske	-7.21863
wave	-7.23035
▁appe	-7.23547
▁wor	-7.23726
▁thir	-7.24581
▁whe	-7.24809
▁dra	-7.26187
▁do	-7.26751
success	-7.27567
rac	-7.27919
yp	-7.28378
▁twe	-7.2898
road	-7.28981
ule	-7.29492
lies	-7.30276
ematic	-7.30407
▁ear	-7.32691
▁prov	-7.33937
ils	-7.34076
gam	-7.3409
▁sw	-7.34452
ful	-7.35476
ight	-7.36332
qua	-7.36332
tract	-7.36406
ast	-7.38236
▁campaign	-7.39433
▁cha	-7.41179
ust	-7.42519
▁citizen	-7.44272
tim	-7.44618
▁agree	-7.45962
▁learn	-7.46007
▁dep	-7.47622
ocat	-7.48174
can	-7.48261
way	-7.49403
▁non	-7.50086
rve	-7.50305
j	-7.50548
hole	-7.51113
▁recogni	-7.51113
▁amb	-7.51389
apo	-7.52354
▁lantern	-7.52898
▁beach	-7.52899
▁desert	-7.52904
ligi	-7.53059
▁list	-7.53115
ult	-7.53738
ood	-7.55645
ular	-7.56362
opp	-7.56412
▁continent	-7.56568
▁activ	-7.56569
uff	-7.56595
ggin	-7.56611
chan	-7.5865
▁fu	-7.58662
flat	-7.59688
▁geologist	-7.60381
▁emb	-7.60418
ife	-7.60537
▁la	-7.61906
▁fol	-7.6256
▁path	-7.64362
ffer	-7.64363
low	-7.64508
rners	-7.64928
pots	-7.65003
▁shelter	-7.6638
ece	-7.67645
nts	-7.68101
▁bound	-7.68463
▁gener	-7.68512
acc	-7.70121
▁tail	-7.70599
round	-7.70602
▁reproduc	-7.70631
cycl	-7.70662
pers	-7.70679
▁behav	-7.72765
▁award	-7.72813
cent	-7.73962
▁brains	-7.74987
▁last	-7.75554
▁want	-7.75595
▁calcul	-7.7726
▁limit	-7.7726
▁breath	-7.7726
ipulat	-7.77262
▁terri	-7.77278
ampe	-7.77637
duc	-7.77671
▁sou	-7.77808
act	-7.79689
▁displace	-7.81966
▁guarantee	-7.81966
▁textbook	-7.81966
▁interventions	-7.81966
view	-7.81968
▁subs	-7.81977
aliz	-7.81992
▁part	-7.82022
▁fod	-7.82199
▁oc	-7.83078
▁intersect	-7.84405
▁considerat	-7.84406
▁summ	-7.84407
room	-7.84413
slam	-7.84463
igu	-7.85376
▁fos	-7.85669
▁collaboration	-7.86905
found	-7.86906
vert	-7.87215
love	-7.87286
mater	-7.89293
▁tra	-7.89419
▁vibrat	-7.89469
▁actresses	-7.89469
▁philosoph	-7.89469
▁respon	-7.89473
▁obse	-7.89487
man	-7.89515
▁channel	-7.92101
▁cupcake	-7.92101
▁influx	-7.92101
▁policing	-7.92101
▁emerge	-7.92101
▁bann	-7.9213
▁comm	-7.92173
▁payment	-7.94804
▁reign	-7.94805
▁objecti	-7.94879
▁trans	-7.94887
scientology	-7.97581
▁anchorage	-7.97581
▁pregnancy	-7.97581
▁rebuild	-7.97581
▁unknowns	-7.97581
▁influen	-7.97582
▁tooth	-7.97582
town	-7.97584
▁foy	-7.9773
▁spare	-7.97762
▁sim	-7.97845
rou	-7.98032
▁inhalation	-8.00438
▁methods	-8.00438
▁toilet	-8.00438
taph	-8.00439
▁local	-8.00439
▁stores	-8.0078
▁embarrassment	-8.0338
▁enjambment	-8.0338
▁gentleman	-8.0338
▁paratexts	-8.0338
▁symptom	-8.0338
▁break	-8.0338
▁habit	-8.0338
defin	-8.03382
▁fears	-8.03387
▁interest	-8.03389
sign	-8.03396
▁uncle	-8.03397
tize	-8.03485
work	-8.06321
▁flash	-8.0641
▁outro	-8.0641
▁podcasts	-8.0641
▁qualities	-8.0641
▁credential	-8.0641
▁dessert	-8.06411
▁measur	-8.06411
▁razor	-8.06413
▁poems	-8.06416
▁invest	-8.06418
▁opt	-8.0645
gene	-8.06543
▁fom	-8.06606
▁uncontro	-8.06691
▁discou	-8.06714
▁represent	-8.0729
1	-8.09535
9	-8.09535
0	-8.09535
8	-8.09535
▁appearance	-8.09535
▁berthage	-8.09535
▁explosion	-8.09535
▁safeguard	-8.09535
▁taunts	-8.09535
▁venality	-8.09535
▁chutes	-8.09535
▁tragedy	-8.09535
▁large	-8.09544
▁interv	-8.09547
▁sym	-8.09756
▁sma	-8.09872
▁hea	-8.10223
▁movi	-8.1159
▁evol	-8.12105
▁certificates	-8.12761
▁departure	-8.12761
▁governance	-8.12761
▁quantification	-8.12761
▁tourist	-8.12761
▁constru	-8.12761
▁recip	-8.12762
▁direct	-8.12765
icipa	-8.12786
solv	-8.12816
▁stru	-8.12854
dise	-8.12902
ntain	-8.12948
reve	-8.1458
▁antiques	-8.16094
▁compounds	-8.16094
▁connotations	-8.16094
▁electrons	-8.16094
▁hurdles	-8.16094
▁institutions	-8.16094
▁knots	-8.16094
▁municipalities	-8.16094
▁pictographs	-8.16094
▁album	-8.16094
▁decoration	-8.16094
▁haven	-8.16094
▁acquisition	-8.16094
▁weekends	-8.16094
▁plac	-8.16095
▁supp	-8.16098
▁inclu	-8.16099
▁cap	-8.16238
mili	-8.16812
▁airports	-8.19542
▁capacity	-8.19542
▁decisions	-8.19542
▁foreigners	-8.19542
▁magazines	-8.19542
▁modernity	-8.19542
▁wartime	-8.19542
▁reform	-8.19543
▁sisal	-8.19558
▁week	-8.19559
ndi	-8.22097
jection	-8.23014
▁acqui	-8.23114
pathize	-8.23114
▁attempt	-8.23114
▁baseball	-8.23114
▁bourbon	-8.23114
▁conjectures	-8.23114
▁currents	-8.23114
▁explorers	-8.23114
▁implements	-8.23114
▁minorities	-8.23114
▁shortage	-8.23114
evaluate	-8.23114
▁opportunities	-8.23114
▁dividends	-8.23114
▁holder	-8.23115
▁cousins	-8.23115
stream	-8.23116
▁hurtle	-8.23116
mail	-8.23122
▁maiden	-8.23123
▁laugh	-8.23124
▁communi	-8.23126
▁handle	-8.23127
conce	-8.23475
equent	-8.26817
▁improvements	-8.26817
▁longitude	-8.26817
▁oceans	-8.26817
▁robots	-8.26817
▁pictures	-8.26818
▁redesign	-8.26818
▁adapt	-8.26818
▁fof	-8.26907
volve	-8.27579
rown	-8.28096
▁brightness	-8.30664
▁denomination	-8.30664
▁hormones	-8.30664
▁anemone	-8.30664
▁contours	-8.30664
▁demise	-8.30664
courage	-8.30664
▁oppos	-8.30674
▁fok	-8.30723
ceme	-8.30809
▁defectors	-8.34664
▁festivals	-8.34664
▁verticalization	-8.34664
▁component	-8.34664
claim	-8.34664
▁outl	-8.34665
▁perlite	-8.34671
guard	-8.34689
empl	-8.3475
lapse	-8.35694
eologis	-8.38825
▁capacities	-8.3883
▁commercial	-8.3883
▁congratulate	-8.3883
q	-9.52954
x	-9.52964
(	-9.52974
)	-9.52974
h	-9.52974
’	-9.52974
