<unk>	0
<s>	0
</s>	0
s	-2.56956
▁-	-2.62993
▁	-2.94173
ed	-3.05433
es	-3.31488
▁a	-3.60082
t	-3.79828
e	-3.82009
▁an	-3.85146
▁the	-3.87598
ing	-4.08314
i	-4.27635
▁in	-4.38813
d	-4.46985
n	-4.48559
r	-4.63405
y	-4.74339
l	-4.76252
p	-4.7695
c	-4.77625
o	-4.78136
a	-4.78598
▁at	-4.82026
▁on	-4.82409
g	-4.87424
m	-4.90976
al	-4.94167
▁re	-5.07663
▁ar	-5.09833
▁ap	-5.12626
or	-5.13078
▁ab	-5.13281
▁ak	-5.13935
▁ay	-5.14035
▁ax	-5.14309
▁ag	-5.14825
▁aw	-5.20958
▁ac	-5.25354
v	-5.29368
er	-5.3874
b	-5.3913
▁au	-5.45494
at	-5.50237
▁ai	-5.52342
f	-5.53716
ar	-5.54345
▁av	-5.6007
▁en	-5.60576
▁aj	-5.60872
▁ao	-5.61439
ic	-5.63591
▁p	-5.67042
▁g	-5.73106
an	-5.7465
le	-5.79209
▁f	-5.83736
▁con	-5.84468
ers	-5.85433
ion	-5.86357
▁de	-5.91165
▁b	-5.92692
▁st	-5.97025
ate	-6.03434
▁od	-6.03819
ul	-6.06161
▁os	-6.09301
on	-6.09763
ti	-6.10224
▁que	-6.12377
ri	-6.12739
k	-6.15434
ist	-6.15446
ch	-6.16834
▁c	-6.19549
mo	-6.21142
▁w	-6.21242
▁thi	-6.22481
▁un	-6.23424
re	-6.24678
ation	-6.25431
ol	-6.26477
no	-6.27394
▁dis	-6.28115
▁wre	-6.28448
▁thu	-6.2875
ad	-6.2989
-	-6.30816
▁ys	-6.32236
el	-6.32908
▁tha	-6.33158
ure	-6.34302
▁ha	-6.3485
▁sce	-6.35594
▁whe	-6.36597
▁fre	-6.37571
▁tho	-6.3777
ous	-6.38362
▁twe	-6.38365
ter	-6.38796
▁ble	-6.42581
able	-6.4324
rac	-6.44372
z	-6.45306
tion	-6.50031
ck	-6.50073
ments	-6.50663
▁comp	-6.51676
▁ple	-6.53252
ting	-6.5372
▁ma	-6.56287
▁pre	-6.58216
ations	-6.58232
tic	-6.5957
▁imp	-6.60902
▁t	-6.61903
ign	-6.63239
ro	-6.69757
ow	-6.70094
▁pro	-6.70375
▁ot	-6.73472
igh	-6.75266
▁bi	-6.76026
ide	-6.78084
ling	-6.78765
ass	-6.80281
ive	-6.80979
▁se	-6.82093
▁me	-6.82282
pp	-6.85278
▁wa	-6.85483
▁sc	-6.85682
▁ob	-6.86314
j	-6.86571
ish	-6.90027
▁cross	-6.91041
▁fl	-6.91865
▁emb	-6.92053
▁ex	-6.92087
▁si	-6.92155
ful	-6.93117
ect	-6.93379
▁co	-6.96785
▁ho	-6.97505
ac	-6.97858
ke	-7.00885
w	-7.01432
.	-7.01631
▁la	-7.02494
man	-7.04021
centr	-7.0432
ten	-7.04928
tur	-7.06956
out	-7.0738
ject	-7.07507
▁dep	-7.08835
ment	-7.09171
ence	-7.09225
▁ca	-7.12148
qua	-7.1474
min	-7.15265
▁ball	-7.18759
ll	-7.18842
▁bo	-7.19132
den	-7.199
▁gra	-7.20009
ical	-7.21181
olog	-7.21343
rap	-7.22246
success	-7.22696
▁oc	-7.23168
rain	-7.24201
▁ut	-7.25493
▁om	-7.25939
▁over	-7.2838
▁dra	-7.2864
▁di	-7.28729
ity	-7.30213
▁et	-7.30278
▁sw	-7.30361
▁mi	-7.30576
ame	-7.31655
ress	-7.31836
bit	-7.33045
▁recogni	-7.34388
ven	-7.34572
▁limit	-7.35951
▁non	-7.36332
▁oy	-7.36526
▁fa	-7.38091
tain	-7.39177
fect	-7.39769
▁collaboration	-7.4079
▁continent	-7.4079
▁agree	-7.40836
emp	-7.41009
ours	-7.41684
amb	-7.42135
▁lo	-7.42217
▁award	-7.42498
cycl	-7.44207
orders	-7.44231
▁per	-7.45524
ite	-7.45753
▁citizen	-7.45876
▁tail	-7.45876
▁mode	-7.45949
▁ne	-7.46226
▁campaign	-7.4763
▁pict	-7.47995
▁geologist	-7.49416
▁lantern	-7.49416
▁appear	-7.49417
▁learn	-7.49417
flat	-7.49698
▁ear	-7.50193
bor	-7.50462
▁sha	-7.51234
▁og	-7.51812
spi	-7.52663
aliz	-7.53115
stin	-7.54208
front	-7.54976
▁desert	-7.54977
▁capacit	-7.56896
▁bas	-7.57234
ular	-7.57326
itt	-7.58091
found	-7.58856
round	-7.58856
▁respon	-7.58862
arri	-7.60704
▁influen	-7.60856
▁gener	-7.60857
room	-7.60873
reli	-7.61115
ector	-7.61308
▁bound	-7.61597
▁def	-7.62602
ook	-7.62626
▁office	-7.62824
count	-7.62829
rove	-7.62976
cultur	-7.62983
opp	-7.64716
ffer	-7.65029
land	-7.66071
▁calcul	-7.67108
▁displace	-7.67108
text	-7.6711
▁warp	-7.6714
ood	-7.67275
mater	-7.68925
▁loo	-7.6913
▁rebuild	-7.69282
▁breath	-7.69282
rbon	-7.69316
▁vo	-7.69747
waves	-7.69811
▁fath	-7.70133
▁emerge	-7.71504
▁brains	-7.71542
▁divid	-7.73785
nding	-7.74713
ther	-7.752
esto	-7.75334
ends	-7.75601
ematic	-7.7611
▁hand	-7.76155
town	-7.76257
can	-7.77982
urdle	-7.78484
▁beach	-7.78484
▁local	-7.78492
xie	-7.80105
▁communi	-7.80923
▁measur	-7.80923
▁reproduc	-7.8097
▁host	-7.81496
▁last	-7.81983
taph	-7.83423
▁quantif	-7.83431
▁part	-7.83508
▁coll	-7.83993
▁li	-7.85078
▁behav	-7.85987
▁break	-7.85987
▁cupcake	-7.85987
▁governance	-7.85987
▁safeguard	-7.85987
▁reform	-7.85987
fund	-7.88618
▁subs	-7.88618
▁consider	-7.88619
mail	-7.8862
▁uncle	-7.88633
▁minor	-7.88746
strate	-7.88778
lux	-7.91321
then	-7.91321
▁channel	-7.91321
▁municipalities	-7.91321
▁tooth	-7.91321
▁rosters	-7.91321
ipulat	-7.91352
▁archi	-7.91393
▁crea	-7.91407
forma	-7.91723
▁laugh	-7.94099
▁hints	-7.94099
▁territory	-7.94099
▁weekends	-7.94099
▁post	-7.94114
line	-7.94139
gerat	-7.94144
▁county	-7.9416
▁trans	-7.94179
▁spare	-7.94196
▁want	-7.94414
x	-7.95158
ntle	-7.95961
▁fea	-7.96759
▁edifices	-7.96956
▁policing	-7.96956
▁chance	-7.96956
▁coach	-7.96961
rown	-7.96998
solv	-7.97182
▁pen	-7.97233
scien	-7.98473
▁berthage	-7.99897
▁imagination	-7.99897
▁intelligibility	-7.99897
▁mathematicians	-7.99897
▁noggins	-7.99897
▁sur	-7.99897
▁websites	-7.99897
▁dissertation	-7.99897
▁particles	-7.99897
view	-7.99898
▁walk	-7.99914
ceme	-7.99949
▁represent	-7.9997
▁officers	-8.00004
ictions	-8.00036
defin	-8.02927
▁distortions	-8.02927
▁guarantee	-8.02927
▁inclu	-8.02927
▁vindication	-8.02927
▁anemone	-8.02928
▁citations	-8.02928
▁listing	-8.0295
▁counter	-8.02963
▁coin	-8.02973
▁uncontro	-8.03364
▁para	-8.0337
▁tra	-8.03485
pture	-8.0385
cent	-8.04883
▁na	-8.05035
▁retr	-8.05448
▁aqueducts	-8.06052
▁centerpiece	-8.06052
▁departure	-8.06052
▁guardians	-8.06052
▁guests	-8.06052
▁merchandise	-8.06052
▁scoreboard	-8.06052
▁supplies	-8.06052
▁symptom	-8.06052
▁nerves	-8.06053
▁perils	-8.06054
▁direct	-8.06055
▁prices	-8.06055
▁punc	-8.06064
▁interest	-8.06078
▁bann	-8.06084
▁invest	-8.06094
▁elect	-8.07201
▁cha	-8.07455
quent	-8.09278
▁bridges	-8.09278
▁brightness	-8.09278
▁paths	-8.09278
▁provocation	-8.09278
▁reflection	-8.09278
▁taunts	-8.09278
▁opportunities	-8.09278
▁chair	-8.09292
kin	-8.12128
▁acqui	-8.12611
enfranchisement	-8.12612
▁airports	-8.12612
▁babinos	-8.12612
▁conclusions	-8.12612
▁consum	-8.12612
▁jellies	-8.12612
▁shelter	-8.12612
▁shortage	-8.12612
▁constru	-8.12612
▁knots	-8.12612
▁pattern	-8.12612
▁demise	-8.12612
▁attempt	-8.12613
▁plac	-8.12624
▁reader	-8.12631
lder	-8.12759
sci	-8.13441
▁jo	-8.1483
tize	-8.14947
insula	-8.14988
▁costumes	-8.1606
▁explorers	-8.1606
▁festivals	-8.1606
▁jurisdictions	-8.1606
▁lifetimes	-8.1606
▁philosoph	-8.1606
▁seasons	-8.1606
▁payment	-8.1606
▁parole	-8.1606
▁slides	-8.16061
▁atoms	-8.16075
nanc	-8.16158
ssert	-8.16282
▁wea	-8.19052
▁calendar	-8.19631
▁commercial	-8.19631
▁expropriation	-8.19631
▁institutions	-8.19631
▁preservatives	-8.19631
▁roadway	-8.19631
▁illu	-8.19631
▁adapt	-8.19631
▁farmer	-8.19631
▁trails	-8.19632
▁tourist	-8.19637
icipa	-8.19674
bell	-8.19792
vert	-8.22063
produce	-8.23263
sterners	-8.23332
pathize	-8.23335
▁appellants	-8.23335
▁chunk	-8.23335
▁cousins	-8.23335
▁heels	-8.23335
▁militaries	-8.23335
▁toilet	-8.23335
▁unfold	-8.23335
▁tragedy	-8.23335
▁cla	-8.24799
ocat	-8.25927
tificat	-8.27168
▁armholes	-8.27181
▁explosion	-8.27181
▁hotspots	-8.27181
▁neologism	-8.27181
▁pathways	-8.27181
▁ragamuffin	-8.27181
▁slipstream	-8.27181
▁vaccine	-8.27181
▁vapour	-8.27181
▁weeks	-8.27181
▁sections	-8.27182
▁perlite	-8.27182
▁westerners	-8.27186
▁movi	-8.29718
▁ambiguity	-8.31181
▁brevet	-8.31181
▁censuses	-8.31181
▁islamophobia	-8.31181
▁magazines	-8.31181
▁malfunction	-8.31181
▁midwife	-8.31181
▁predators	-8.31181
▁puppets	-8.31181
▁touch	-8.31181
▁urg	-8.31181
▁wavenumber	-8.31181
▁finish	-8.31181
▁racism	-8.31181
▁oceans	-8.31183
▁plant	-8.31183
▁claws	-8.31189
▁masters	-8.3119
ouris	-8.31208
▁butter	-8.35348
▁cloth	-8.35348
▁congratulate	-8.35348
▁credential	-8.35348
▁domain	-8.35348
▁follow	-8.35348
▁fuels	-8.35348
▁introduce	-8.35348
▁optogenetics	-8.35348
▁shrouds	-8.35348
▁summit	-8.35348
▁teaspoons	-8.35348
▁piece	-8.35348
(	-8.64822
)	-8.64822
0	-8.83621
1	-8.83621
8	-8.83621
9	-8.83621
’	-9.2588
q	-9.63384
u	-9.63394
h	-9.63404
