<unk>	0
<s>	0
</s>	0
▁	-2.50671
s	-2.53743
▁-	-2.72468
ed	-3.10578
es	-3.34154
▁a	-3.75474
e	-3.82933
t	-3.89194
ing	-3.95132
▁an	-3.96105
▁the	-3.98368
o	-4.20055
l	-4.22382
d	-4.31214
r	-4.33417
a	-4.4001
i	-4.4427
c	-4.50621
▁in	-4.57016
n	-4.59421
m	-4.74561
g	-4.75556
y	-4.79471
▁on	-4.82278
p	-4.87942
▁at	-4.89044
or	-5.06374
er	-5.07329
al	-5.12853
ar	-5.15144
b	-5.26835
▁re	-5.27465
f	-5.32207
ic	-5.44308
at	-5.44762
▁b	-5.50932
▁ac	-5.59592
in	-5.60785
le	-5.62492
th	-5.68163
v	-5.71754
▁fo	-5.72121
ion	-5.75808
en	-5.76547
▁ax	-5.81384
▁p	-5.83244
▁au	-5.83281
▁os	-5.8339
▁ak	-5.84732
▁av	-5.8483
▁aj	-5.8519
▁aw	-5.87536
tion	-5.87887
ers	-5.89327
▁ar	-5.90695
▁ai	-5.91721
▁ab	-5.95084
▁ay	-5.9591
ation	-6.0225
▁ag	-6.03343
▁ap	-6.0354
ate	-6.04717
▁ao	-6.07252
▁de	-6.0878
▁st	-6.09515
▁g	-6.13186
▁c	-6.13279
▁il	-6.18477
▁pre	-6.19204
-	-6.20407
▁ig	-6.21418
▁un	-6.21423
▁ir	-6.25443
▁im	-6.25523
mo	-6.26108
▁co	-6.26978
▁po	-6.27709
▁iy	-6.28729
▁en	-6.29645
▁ip	-6.30206
▁ib	-6.327
▁tha	-6.34219
able	-6.35229
ti	-6.35237
z	-6.36644
ect	-6.37493
ous	-6.39524
▁dis	-6.39947
▁ys	-6.41424
pp	-6.4146
ist	-6.44087
no	-6.46726
ment	-6.49097
▁con	-6.49218
ll	-6.53213
▁comp	-6.53414
▁tho	-6.5432
▁ma	-6.57024
k	-6.57933
our	-6.61485
and	-6.62235
ish	-6.62898
ive	-6.65178
▁que	-6.6952
▁pri	-6.72543
tur	-6.72609
j	-6.7281
▁fa	-6.73141
ap	-6.73188
ble	-6.73365
▁od	-6.75493
▁ix	-6.75857
▁we	-6.77426
▁mi	-6.78701
ite	-6.79436
▁gre	-6.82569
vi	-6.8257
▁me	-6.83127
▁iv	-6.83628
▁iz	-6.84382
▁per	-6.84467
▁ic	-6.85021
nk	-6.88368
ence	-6.88551
tic	-6.91357
ash	-6.92502
lat	-6.94977
ons	-6.95209
▁spe	-6.95514
ight	-6.96261
cent	-6.97572
▁tre	-6.9846
ide	-6.98974
▁fle	-6.99612
▁whe	-7.00466
▁pro	-7.01244
own	-7.01508
▁che	-7.01508
▁swe	-7.01508
▁ud	-7.01508
over	-7.01788
▁fre	-7.03002
▁lo	-7.03415
▁j	-7.03471
▁sce	-7.05592
out	-7.05757
▁cre	-7.05776
▁thys	-7.05807
▁gle	-7.06115
end	-7.06447
▁ra	-7.06901
fer	-7.06906
▁dre	-7.06919
▁cr	-7.07056
▁quis	-7.07997
tern	-7.10011
▁office	-7.11406
▁emb	-7.1158
▁bi	-7.11793
atic	-7.11834
x	-7.12242
ast	-7.12332
▁gwe	-7.12569
▁thu	-7.12569
▁kne	-7.12572
▁dra	-7.12619
▁fris	-7.12922
▁imp	-7.13125
▁ple	-7.13267
▁phe	-7.13745
▁thim	-7.14569
lit	-7.14862
▁twe	-7.14936
▁cze	-7.14951
▁sve	-7.16196
ack	-7.16598
▁di	-7.1694
▁si	-7.17297
▁chu	-7.1736
▁wre	-7.18595
▁thi	-7.18912
▁count	-7.19844
wave	-7.19845
▁plis	-7.19851
▁sme	-7.19997
nts	-7.20181
▁snis	-7.21118
▁whis	-7.22393
ian	-7.24621
ical	-7.2465
▁sc	-7.25231
▁cross	-7.2635
man	-7.2697
port	-7.2841
▁air	-7.29034
.	-7.29062
ful	-7.29062
▁influ	-7.29062
▁se	-7.29065
▁tail	-7.29071
▁gra	-7.3106
▁ex	-7.31336
min	-7.3143
▁geologist	-7.31859
▁sle	-7.32705
tim	-7.3456
▁thir	-7.34749
▁tra	-7.35266
lies	-7.36718
ten	-7.37485
▁agree	-7.37702
ities	-7.37943
▁wor	-7.39215
▁fr	-7.39257
reign	-7.42322
▁hor	-7.43903
igh	-7.44135
▁recogni	-7.45516
▁ske	-7.45548
▁ne	-7.45831
▁ot	-7.46032
ck	-7.46752
▁collaboration	-7.47156
mone	-7.4791
ounds	-7.48822
▁oc	-7.49316
itt	-7.51301
▁inhal	-7.52241
▁continent	-7.52241
▁objecti	-7.52241
▁listing	-7.52251
▁appea	-7.52347
tract	-7.54018
cycl	-7.54064
▁cla	-7.55766
▁beach	-7.55782
▁desert	-7.55787
ake	-7.55983
nch	-7.57464
▁award	-7.57642
▁inte	-7.57938
ipa	-7.58972
▁ear	-7.59431
▁learn	-7.59455
▁na	-7.59785
▁exp	-7.60105
ris	-7.60329
ook	-7.60973
▁explo	-7.6165
nanc	-7.63264
▁interv	-7.63494
▁la	-7.63592
ven	-7.63631
ils	-7.63896
text	-7.65224
▁week	-7.65229
gerat	-7.65277
▁non	-7.65518
mater	-7.65633
▁rebuild	-7.67222
▁symptom	-7.67222
aliz	-7.67247
▁li	-7.68069
line	-7.68076
▁loca	-7.68844
cultur	-7.69263
▁partic	-7.69268
acc	-7.70854
found	-7.71346
▁citizen	-7.71346
▁safeguard	-7.71346
▁emerge	-7.71346
▁lantern	-7.71347
▁gener	-7.7136
ept	-7.71439
sci	-7.71797
▁prov	-7.72034
ocat	-7.73112
taph	-7.73474
▁campaign	-7.73474
▁limit	-7.73474
gam	-7.74006
rve	-7.74344
▁capacit	-7.75648
orders	-7.7572
▁slip	-7.76055
▁respon	-7.77875
ett	-7.79764
reli	-7.80065
▁breath	-7.80143
▁displace	-7.80143
ece	-7.80179
oon	-7.80537
tan	-7.84323
chan	-7.84847
insula	-7.84849
▁canvas	-7.84849
▁shape	-7.84849
▁brains	-7.84849
▁considerat	-7.84849
▁para	-7.84913
mail	-7.87293
tab	-7.88147
▁defe	-7.8893
comp	-7.89778
uff	-7.89788
▁festivals	-7.89788
ipulat	-7.89788
▁reform	-7.89789
front	-7.89794
▁obse	-7.89812
▁reproduc	-7.8983
love	-7.90156
curr	-7.92352
▁connotations	-7.92352
▁flats	-7.92361
▁spare	-7.9249
▁last	-7.92835
ood	-7.93146
view	-7.94984
▁measur	-7.94984
▁appellants	-7.94984
▁armholes	-7.94984
▁break	-7.94984
▁plac	-7.94986
road	-7.94987
bell	-7.95039
▁fest	-7.95063
age	-7.95539
conce	-7.96405
▁philosoph	-7.97687
▁calcul	-7.97687
▁hospitality	-7.97687
▁longitude	-7.97687
▁citations	-7.97687
▁intersect	-7.97687
▁post	-7.98555
ndar	-7.99202
erpi	-7.99267
fri	-8.00043
▁opportun	-8.00464
▁attempt	-8.00465
▁hours	-8.00465
▁scoreboard	-8.00465
▁subs	-8.00465
design	-8.00465
▁trans	-8.00621
▁bri	-8.00661
ossi	-8.00769
▁movi	-8.00772
equent	-8.03322
fund	-8.03322
▁architecture	-8.03322
▁effort	-8.03322
▁pictographs	-8.03322
▁preconditions	-8.03322
▁tooth	-8.03322
defin	-8.03324
▁interest	-8.03324
▁activ	-8.03332
▁elect	-8.03334
strate	-8.03468
reve	-8.03765
▁shelter	-8.06263
▁ambassadors	-8.06263
▁destinations	-8.06263
▁investments	-8.06263
▁magazines	-8.06263
▁shortage	-8.06263
▁model	-8.06263
▁seasons	-8.06263
▁finish	-8.06263
▁ballet	-8.06264
▁bann	-8.06265
xie	-8.06346
▁want	-8.09293
stream	-8.09293
▁ballroom	-8.09293
▁hostel	-8.09293
▁depots	-8.09293
▁inclu	-8.09293
▁dryer	-8.09293
▁farmer	-8.09293
▁uncle	-8.09322
dise	-8.09377
▁aff	-8.09479
amp	-8.09529
▁sli	-8.09709
slam	-8.09785
▁rid	-8.09863
rac	-8.10141
vert	-8.11037
▁acquisition	-8.12418
▁ballot	-8.12418
▁biologist	-8.12418
▁channel	-8.12418
▁conspiracy	-8.12418
▁enjambment	-8.12418
▁guardians	-8.12418
▁midwife	-8.12418
▁skydivers	-8.12418
▁cloth	-8.12419
▁dessert	-8.12419
courage	-8.12423
▁direct	-8.12424
▁uncontro	-8.13093
▁commercial	-8.15644
▁congratulate	-8.15644
▁habit	-8.15644
▁prototypes	-8.15644
▁payment	-8.15644
▁oppos	-8.15645
▁errors	-8.15645
▁fears	-8.15645
▁chance	-8.15646
▁large	-8.15653
▁divide	-8.15664
▁slice	-8.15672
ntain	-8.15774
▁punc	-8.15886
▁retr	-8.16103
▁asbestos	-8.18977
▁malfunction	-8.18977
▁neckhole	-8.18977
▁neologism	-8.18977
▁restraint	-8.18977
▁territory	-8.18977
▁cocoa	-8.18979
▁creases	-8.18988
publi	-8.18989
▁summit	-8.18994
solv	-8.18998
▁communi	-8.1907
munic	-8.22329
▁afternoon	-8.22426
▁album	-8.22426
▁cemetery	-8.22426
▁hotspots	-8.22426
▁improvements	-8.22426
▁preservatives	-8.22426
▁puppets	-8.22426
▁recipe	-8.22426
▁saponins	-8.22426
▁society	-8.22426
▁dispersion	-8.22426
▁contours	-8.22427
▁crossroads	-8.22433
▁order	-8.22443
forma	-8.2279
▁aqueducts	-8.25997
▁arbitrariness	-8.25997
▁costumes	-8.25997
▁fullness	-8.25997
▁speech	-8.25997
▁folks	-8.25999
▁adapt	-8.26
mili	-8.28266
representati	-8.29701
round	-8.29701
tumbl	-8.29701
▁baseball	-8.29701
▁behaviors	-8.29701
▁carbons	-8.29701
▁character	-8.29701
▁conclusions	-8.29701
▁credential	-8.29701
▁depictions	-8.29701
▁farriers	-8.29701
▁fuels	-8.29701
▁hurtle	-8.29701
▁laugh	-8.29701
▁stonework	-8.29701
▁vibrat	-8.29701
▁lakefront	-8.29701
▁vessel	-8.29701
▁command	-8.29701
▁pictures	-8.29701
▁basils	-8.29702
▁record	-8.29703
▁appearance	-8.33547
▁boundaries	-8.33547
▁censuses	-8.33547
▁discourse	-8.33547
▁domain	-8.33547
▁imagination	-8.33547
▁impression	-8.33547
▁marketing	-8.33547
▁optogenetics	-8.33547
▁secularist	-8.33547
▁constru	-8.33547
▁plant	-8.33547
▁countries	-8.33549
▁faith	-8.33567
claim	-8.33806
enfranchisement	-8.37547
evaluate	-8.37547
nounce	-8.37547
▁departure	-8.37547
0	-8.46061
1	-8.46062
8	-8.46062
9	-8.46062
)	-9.13155
(	-9.13155
q	-9.55827
w	-9.55837
u	-9.55847
h	-9.55857
’	-9.55857
